/**
  ******************************************************************************
  * @file    network_data.c
  * @author  AST Embedded Analytics Research Platform
  * @date    Sat Nov  6 11:17:21 2021
  * @brief   AI Tool Automatic Code Generator for Embedded NN computing
  ******************************************************************************
  * @attention
  *
  * Copyright (c) 2021 STMicroelectronics.
  * All rights reserved.
  *
  * This software component is licensed by ST under Ultimate Liberty license
  * SLA0044, the "License"; You may not use this file except in compliance with
  * the License. You may obtain a copy of the License at:
  *                             www.st.com/SLA0044
  *
  ******************************************************************************
  */
#include "network_data.h"
#include "ai_platform_interface.h"


AI_ALIGNED(32)
const ai_u64 s_network_weights_array_u64[ 1413 ] = {
  0x44e8fe2502b043fbU, 0x1d53b2e9f60808d1U, 0x7fa2cf31d107d111U, 0xfece01f0d1ead736U,
  0x8cabe6810b091bf5U, 0xcd2618fc0a0ecefaU, 0xfa0f14f41fe02016U, 0xc5fcfb0ddffa2701U,
  0xfbe697e4e28103fbU, 0x154c10307110021eU, 0xf7e4e5a3dddd8124U, 0xf091a110f08d715U,
  0x1733d1878000705U, 0x7feb0d3f1bed0e17U, 0x2f7c60922601c32U, 0xfe05e7dbacf5bf81U,
  0xeaf80ffc1500f004U, 0x28fd05f60cf81ddeU, 0xfff8e71c120efaeaU, 0x3dc4217fe4114013U,
  0x1126400e04ebf904U, 0x257f0dfbf210082fU, 0x4d1afbdd1afd6822U, 0xf3f8112ef62b3219U,
  0xe91fefc54907bc41U, 0x18e1a27fff916bf9U, 0xeccc4807cc2affeaU, 0x189b50000052cU,
  0x43be0000a297U, 0xfffff601000001c3U, 0x112e00000f3bU, 0xfe04ecf801fe02f3U,
  0x191581daff261031U, 0x6eb19f20f089c04U, 0x1e021208fffe04f8U, 0x8181567f0581037fU,
  0xc77f12381e8ca21U, 0x1030bfbfd03fee6U, 0x1312da050b05e71dU, 0x3ed01fd00027fecU,
  0x5a7fffffd15U, 0x197d00000c02U, 0x7e0ffffffdbU, 0x79000000527U,
  0xa27f0108070904e4U, 0x7f6a1d27d12ffb19U, 0xd6da5470d67f1ed9U, 0x2a00faea7fe34a0cU,
  0xffffe720fffff49aU, 0xffffe31cffffffbbU, 0x81d18b665fe17fc7U, 0x7f2102e757e7297fU,
  0x7f1af05585fab781U, 0xde288110e17f3ee3U, 0xde7f354fe408947fU, 0x5e77f9081af7777U,
  0x7f500506d37f24f9U, 0xdf208167e2158110U, 0x3d2d988107e87f98U, 0xa02000024e8U,
  0x451cffffff7dU, 0x18d9000000e0U, 0xc0c0000018fU, 0x137c00000c2eU,
  0x152200000018U, 0x34300000854U, 0x6ca00000c22U, 0x2320000170aU,
  0x4522e3273e47db1eU, 0x1108cb20ea3d2ee0U, 0x4a50a04a8165dfe4U, 0xbd41814f57ecb642U,
  0x1f13ee48a281bd41U, 0xef272b3ef93cdc2bU, 0xbfe9ccc4cfaedd39U, 0x51c27e40d62f5f7fU,
  0xd813da05aa3bce73U, 0x817f7f7f817be44bU, 0x8179817fe97f7fc6U, 0xa45d1f25687f8108U,
  0xcd6c3729307f0266U, 0x3049febcb5c2b781U, 0xc4827d7442dea0bU, 0x33e1f03cbb03db26U,
  0x35ccad4d493fce41U, 0xbe79c644be4d5b3dU, 0xb3ac83801126c25U, 0xd9ade9444b060c4fU,
  0x6830000d731U, 0x148e00000216U, 0xe310000008dU, 0x30a0000003fU,
  0xffffffb100000047U, 0x63a000001a0U, 0x5c30000008aU, 0x398000043f3U,
  0x37300003787U, 0xb6c411270000848cU, 0xf8d15ccec081de1aU, 0x2fb03114afd4f47fU,
  0xd7a9ae76bdd1aba8U, 0x59da249eca811e0aU, 0xaf81ea81a64f13dU, 0xef0b7f07ec813018U,
  0x7f315d9457f8124U, 0xabff282afcecf110U, 0xf9db19b8d71a58fcU, 0x3737ade6f8bbe499U,
  0xeb4e0ede4dcb27fU, 0x42262af916c737dbU, 0x81aef22b53d32935U, 0x2745ffffe53dU,
  0x3d1fffffcf7U, 0x1b7300003464U, 0x81cc31f7b87f32efU, 0xb681171040f40607U,
  0xe57f0fea483532e7U, 0xdbc9387f76c23729U, 0xea9c81e7c9fe7fd1U, 0xf48d857f0f54a33aU,
  0x81e9604b0d7f7bfdU, 0x10e871ed6b997a1aU, 0x7fdac4481555427fU, 0x81078187b7c1ddfeU,
  0xb943e618050bd588U, 0x141d213f9c7f818eU, 0x837ff62af30081b9U, 0x812c962d24e00316U,
  0x5cc4a3f97ff04549U, 0x5ff162198117a93bU, 0x9c76512a7f5afd04U, 0xb58c7fb9932d7f1fU,
  0xdb0d07020f815628U, 0xb00403fb1ec11981U, 0xfd588140e8058136U, 0x300a4681ef1bd8e9U,
  0xc5190c1729e2057fU, 0x81ca72db91d18185U, 0x33d5d32131c5810dU, 0xf71b817d7f82df21U,
  0x81ffdbf7383d552eU, 0x11f500001724U, 0x437000012e0U, 0x2e4c00000420U,
  0x9710000381bU, 0x2d900000025cU, 0x16fdfffffe09U, 0xa9b000019d9U,
  0x161b00000c47U, 0x263a00001b8bU, 0xff4000014d0U, 0x7350000304bU,
  0x2142fffffdf2U, 0x1124fffff95fU, 0x16640000114dU, 0xffffff050000478aU,
  0x29a9fffffb05U, 0x5bd00001263U, 0xcc200001acdU, 0x49eef8cce712090bU,
  0xf3110cb4122136ecU, 0x17114fe90602d425U, 0x235a09050b0b1919U, 0xc7d72bfb21edf317U,
  0x7f0ac2da0a7fd5e2U, 0x7f81d79bdbacf37fU, 0x6de3ff611a84d2e5U, 0xf24bbdf3512be7fU,
  0xbc3032e819091009U, 0x2b4a0a220c470d0cU, 0xc65fa03208e67f2cU, 0xb70107f90f13e716U,
  0x19f1f7edfaf0d917U, 0xd9576b963430ceceU, 0xd1ff7fd2021db8U, 0xd1fc3df762f02b81U,
  0x7fe6ebf8adf719f0U, 0x81a99be1ffe5defbU, 0xe61f7020cd7f8181U, 0xc80246fa97321fe5U,
  0x7f7f7fea81e4467fU, 0x7304f1f11a7fca81U, 0xdf250cfe341473fcU, 0xf2efb5057f7ffff2U,
  0xf47f81209eb01f7eU, 0x399ecf18a600a06U, 0xced8227f7f030ffbU, 0xd6e5cc15fc0d24d0U,
  0x5cf284fa01030421U, 0xf9050a020000fb01U, 0x9b7f817f05dd1023U, 0xe944d174f4be6095U,
  0x127c1b811d3b81adU, 0x2cce06c4087febf5U, 0xde6a7f2e0c336d1eU, 0x3e1881d734f0f6f7U,
  0x3aa2e91efe271847U, 0x7fd17f10071ee422U, 0x23741b0f021206c7U, 0xfffff26cf3a8350fU,
  0xfffff8c500000bcdU, 0x267b00001b88U, 0x11000000590U, 0x2669000003c0U,
  0x1388fffffe75U, 0x12f2000002fcU, 0xfffffddaffffff98U, 0x2ab80000151eU,
  0xf0fffffe8cU, 0xe9fffff6d7U, 0x7f2000030d2U, 0x14400001f8aU,
  0xfffffb71fffffdaaU, 0xffffe4d80000041aU, 0x4ecfffff2d0U, 0xce400000395U,
  0x1ee0000026bU, 0xbc109ecfffffe91fU, 0xddcc9deceabe0d1bU, 0x824f658f71a157fU,
  0x280c24005d3d5adcU, 0xbd23dbcf17eff2a0U, 0x23b61cc22d2c2ba1U, 0xdc1f1c32357fded0U,
  0x141cc4f0116b363dU, 0xeb5551f1fe09273dU, 0x1d720684359e3c09U, 0x7fe905e33ffe3ae6U,
  0xfb1f44e5e4cde30aU, 0x6521408fbfcb9ebU, 0x27ee34af54fa050bU, 0xec9ed5f4d1ea1f39U,
  0xe6117521d7e0d407U, 0xb51427ce7b1afc39U, 0x801dd3f7f060129U, 0xe8120bf6faea0722U,
  0xdd11cda12f2c51dU, 0x2313fabb7f3c0aebU, 0x17c4c11b24eb2cc0U, 0x1ebfadbd2ccdbc4U,
  0x44c2f727d91c81ecU, 0xf7390a29ed04359aU, 0xce3d052c304ceec2U, 0x13f1eb042cfd422cU,
  0xffffeb17f825e9c3U, 0x565ffffdcdaU, 0x107effffff21U, 0x846e814d000016bfU,
  0xab1b2734157f20e4U, 0xf64347f750e77f98U, 0x220b81def836f681U, 0xabf80d37dc81c222U,
  0xe97fc07f0fea39fcU, 0xefb17f770a36b3f2U, 0xffae81effcbc1106U, 0x8157ac3c907f0855U,
  0xcd874281ee3b4829U, 0xc64581d5f75b2ea5U, 0xa67f5529bcc5f081U, 0x5742560febbae6aeU,
  0x18812e1b186e7f6cU, 0x3710000059aU, 0xfffff93a000002e9U, 0xa8e00000444U,
  0xfbf000005bcU, 0xe4f000005c3U, 0xfffffe880000101fU, 0xfffffcb800000587U,
  0xfffffbe9000004daU, 0x63000000de3U, 0xbe15f40311fbeafbU, 0xd03d0ed8101809f3U,
  0xf60247cffbc6e9e2U, 0xda1046e931f23d23U, 0x1803d50c127f1737U, 0xed0afaede6fef1ecU,
  0xf326ed0dd8cb02f6U, 0xd6f881e3e1ecb4fdU, 0xc6bfb3dfd519e91aU, 0xfbf8fb0a01080bfdU,
  0xd2bb00f4fae9070cU, 0x17293603f6e506eeU, 0x428f0ca13c017b72U, 0x1912c123431cfe7fU,
  0xcbf0dcfd53101aaU, 0xb8a7ffa0f6b215b6U, 0xa6dce5cbcf81e8bfU, 0xf475b2f7bcda055cU,
  0xcfee00d0813f738U, 0xd0f918060d03efc9U, 0x49a40541957f1002U, 0xb78fe1f4efa667a9U,
  0xe71401f831f2c73aU, 0x1b0ddb430028ee01U, 0x4465d161bf8d8e1U, 0x9fdee2aecab9a10eU,
  0xe5c9d9e616b80e7fU, 0xe223608d802b2fcU, 0x8cb630bcb6d60359U, 0xd2275b8b3a151c1eU,
  0x2fc4a27f43906ce6U, 0x180311fa22a5773aU, 0x202902fa09ebfb26U, 0x2adc0305fd10081fU,
  0xe4db27f2effed4beU, 0x1422ec0af6127f15U, 0x1ebf120ff0be9d8U, 0xee02e4100b0aee1eU,
  0x1fdfcea8dee10017U, 0xe8fc1e0ba6f08108U, 0xf6ed23f7defdddd9U, 0xf47ff5fe0a03fae1U,
  0xa4ef40f544d1040cU, 0xfbc2220cffabd61aU, 0xd20dce57cee5d339U, 0xb319b4e5a3c1deb0U,
  0xf4f34cc0e38101f1U, 0xed39d54d7ae604a6U, 0x2919e6140428dc51U, 0xf5fef9d7a0cc303cU,
  0xe5e3f7df06021833U, 0x9fe5f9011eb72aedU, 0x7fac2404eb5f64f3U, 0x2fc04a58f643c5eeU,
  0xf6fc222a22120be3U, 0xec1df3fef7c005fbU, 0x26e726e203f3d3ffU, 0xf1fdee16131b10ceU,
  0x81a505137ff51de0U, 0x40a1b1b090ddf96U, 0xdfff611afbbb2c04U, 0x3b2d2730d4964228U,
  0xd9f0eaf10a0cdc16U, 0xbd51f0ec310ee32aU, 0xad3801abdbcefdf0U, 0xbbbd11092749f8e2U,
  0x16d7b5810d2d6417U, 0xa0f1aed31e0fa36U, 0x1b21061c1c0dfc2aU, 0x3e2c200bfa0a06e7U,
  0x191a7fd111cc1703U, 0x74a6118e1a3f6f3U, 0x13f4f367f1d34aceU, 0xe40b81a9ee3fa9fcU,
  0xe90112ea000de0ebU, 0xff19f11df911eef0U, 0x2230eebff2202f5U, 0xeadbf6f8c9bf090dU,
  0x3ebbe00b19190a22U, 0x97f143954dd7749U, 0xf7f1c9b471bcf207U, 0x14e51be1fde502f5U,
  0x16f2f92bfbf2162dU, 0xd548471a25f8f910U, 0x7f03001d08212e27U, 0xece6f8fa18ee280dU,
  0xe0810408c90f1c09U, 0xc2c7c3d1100016ceU, 0xee14f71600006dd3U, 0x21f044e8002dc042U,
  0xd00802080df4fd03U, 0xc929f6d6061d181bU, 0x8c5205813caa0c20U, 0x63c55e009c5fdeaU,
  0x60ef0f3c94c30c1U, 0xe0a020bf1bcf5fdU, 0xfce2ffec3be22b3bU, 0x7fa24cdfe27d5c1cU,
  0x1f357b36f4d233e3U, 0xff5a18011ce1eecaU, 0xeff881cae0edf7f2U, 0x220f8c2b112cee7U,
  0xeaf51b152e9e30e4U, 0x1203f00128daf340U, 0xffd80838dae9f0edU, 0x6becf7f9af03f30dU,
  0x5423705e19257317U, 0x36457f3f2bb845b3U, 0xca0ffffff84eU, 0x879affffeb23U,
  0x3beb000026fcU, 0x5a0fffff77dU, 0x1dff00006eb8U, 0x223c000049ceU,
  0x19b800000a9cU, 0x8cfffffb75U, 0x46900001f00U, 0x2e8c00000c10U,
  0xc860000165bU, 0x5e00002e09U, 0x3c04ce0bbb09f305U, 0xf6f027e641e4c7ffU,
  0xfa4550da18f9f5d1U, 0xa00a401bf329f1cU, 0xcbc006b52e5f9f1eU, 0x247f7f813be53ca3U,
  0xda04a2e8045f5e21U, 0xa0a2f1e4de60ecc4U, 0x932309647e145a4U, 0x60cfd83fe007dd14U,
  0xed205fb04efe9913U, 0xf5291024441402cdU, 0xf78188750b338168U, 0xc0523f817f7f811fU,
  0x7f69d3ce73627a81U, 0xada2810a117f717aU, 0x81274fb14465cb8eU, 0xdd5e96dd7f667f90U,
  0x6808e93e2ef219f5U, 0xee2a39bd26f9a108U, 0xeeda0329470a03f0U, 0xe345637f7ff8395dU,
  0xf47f7f8c5c41c13aU, 0x7cb9e0f77b725ef4U, 0x815b73392823247fU, 0xd55965bb3f23197fU,
  0xc1d2ebf23e7f69e4U, 0xffffdcf8000003b9U, 0x35d4000004a4U, 0x583800000e9bU,
  0x37600002d85U, 0x5b0dffffe410U, 0x3b6500001364U, 0x1c0f00004832U,
  0x9e910000033dU, 0x11850001185fU, 0x116bfffff30fU, 0x1e2e000060d0U,
  0x390000000071U, 0xfbba2fe6dd3d35a9U, 0x81e1ce49af174942U, 0xef380a06e7fcbcbaU,
  0x24b55e1924ff3fd6U, 0xdf08f4d116f1e7f1U, 0x330ae881230f07d8U, 0xf912ebd6030603deU,
  0x3df81401ccec2af2U, 0x301e2330381daf3U, 0x57ee1481d19de256U, 0xfec5044142e21cfU,
  0xe3ed34aed8d9ef04U, 0x9acfb7ff71d15b6U, 0x5ec8b62a461df01eU, 0xf25d4d2bb2b3aac7U,
  0xe4aff21a1dde15e0U, 0x41e36d198ffa9fdU, 0x7fea580f08b25815U, 0x1f8f1f52c19e01bU,
  0xe0112df2ede7fd02U, 0x81eb0c220cfc2810U, 0x151c130c0506341dU, 0x810809ef18e0dc00U,
  0x3ef7f3262ee2b914U, 0x1bc8000058a3U, 0x2aaf0000136eU, 0xffffea9effffe807U,
  0xffffff9400002af2U, 0x6d7f63342d6a386cU, 0x723c7f4b65253323U, 0x7f266e3239526b3bU,
  0x306a437f3140361dU, 0xdde40bf107f2fc7fU, 0xfb25522c7fedd4ffU, 0x81f730322402ffd2U,
  0x582530fb8120fbfdU, 0xd306e1d6812b56f3U, 0xd2ea3081f10ccf66U, 0xfef3f40bd8bfd47fU,
  0x98edce8c9a347ff2U, 0xbec0d0856d08157U, 0x3972157f689c06d5U, 0x7f5925f101e939eeU,
  0xddb3ad15bb81d60bU, 0x8b06f72eb4f47fc4U, 0xfa2c4e812127e20dU, 0x27f546876587cd1U,
  0x2e2f16624581760eU, 0x60ebd87f0b0f1606U, 0x1c5a0e1558497fc6U, 0x4ad7f50956d17f20U,
  0xd8f5e74d81caa9bfU, 0xa0fdea1381e661b6U, 0xe3f31f8125100057U, 0x3206bb7f05ad7126U,
  0xe19459fc0d1b57fU, 0x9ff41fb6814a0c93U, 0x4abea379819fc47aU, 0x25bc81be08b7ea62U,
  0xe6f414e6ee81ee6bU, 0x657f01d6bf2d6debU, 0xb0d0e811c21f061U, 0xdadbab31f4e4e681U,
  0xc69539a1f33381ebU, 0x32f8f97f0abeffd1U, 0xbffdef08617f4af0U, 0x55707fe2c6c1e23aU,
  0xd8f5efcb811ef1d6U, 0x2dd00000a5aU, 0x1a700000b6cU, 0x764000015cdU,
  0x2658000079d5U, 0x7be00000621U, 0xfb9000012bcU, 0x17fc00000ac8U,
  0x97e00002eddU, 0x15b30000021eU, 0xc17000009bfU, 0x93a00001284U,
  0x7fd00002e03U, 0xa160000039aU, 0x29970000100cU, 0x252100002d60U,
  0x1c7f00000b13U, 0xf2000001d7fU, 0x307500000054U, 0x111a00002c9fU,
  0x1ab000003f93U, 0xfb8d5405061be3eU, 0x4fb9d1fba9b3d410U, 0x200a1d3cac1ef8d7U,
  0x2bab14de7481d611U, 0xd99b56edde9e7d41U, 0xe8daab7e7f13aa7fU, 0x81effc30cfddb715U,
  0x9a060bfab97f7fcaU, 0xc3b3ae48e9ed3ed3U, 0x59f222c13581c781U, 0xf4dc81733d609170U,
  0xeacdfb5dc0a0c0dfU, 0x83e9110aa2c48227U, 0xdf2b09e9c2f4e5ebU, 0xfc7f14e0ebcdda01U,
  0x1436116a5a689b62U, 0xc88103df81b8f40dU, 0x4a7f129bfbe4a652U, 0x7f27fed9fbbf1fa2U,
  0x28b0e74c8118cc13U, 0xb970297f7647ac7fU, 0x2e1e10d99c4bc24U, 0x71d5812fd2670c9bU,
  0xa119fcd14e1d6e49U, 0x35f2e481776bd9f7U, 0xfe57227d127f9d72U, 0xe6ee817fa281c2cbU,
  0x54f52a81c8d4d042U, 0x145f10818100cd21U, 0xd23b7f11fe7cde22U, 0x33a4363e9173813fU,
  0x2140d15ecd2e3ffU, 0x272a26600d39ef7fU, 0x10d8021018de1a81U, 0x5a848ad8fb997f18U,
  0x7fab0c189459b77eU, 0xc61ed742b7aa8181U, 0xc562d9157fdb32ceU, 0xe5657fe62e047f48U,
  0x8119ffee1c6ce307U, 0x1181da499938915cU, 0xf90c942aaea28a63U, 0x7f7219b35d3f0a0eU,
  0xdf7f1a13a2280241U, 0xf05c4bec04412d02U, 0xffffdc6dfffffa6eU, 0x89a9ffff8f06U,
  0xffffcdc5ffff77a4U, 0x41a000002bfU, 0x58ed00003768U, 0xffffdfce00001a73U,
  0x1829fffff837U, 0xffffe59e000046a1U, 0x3db800006d83U, 0x5e00001148U,
  0x1406ffffca6eU, 0x8bbd000006f5U, 0xffffcf14fffb0a5fU, 0xfffffb30fffef5a8U,
  0x1f7000005a3aU, 0x20c00000477eU, 0xffffbcd200003b11U, 0xfffffe63ffffcf7aU,
  0xffff8daf00002289U, 0x152b00000190U, 0xbfdfa9cc4c8d2846U, 0xfea9f5cde6f024edU,
  0xfe4ab6810d2521f6U, 0xdce31b59d4e41a6eU, 0xfddc720b9634db37U, 0x4c5b14ddcdd5e13fU,
  0x1cd4d8c133e8f21eU, 0x3ae76d139af2eb03U, 0xaf268a45bb3e22b2U, 0xb90c031520faed81U,
  0x132428f413ee0deaU, 0xf6a1e4220408dc2bU, 0xdf213a9e9d11721U, 0xdfbc6eb0bb93dfeU,
  0x83b1dee81e5f504U, 0xf3ec420de9ca5919U, 0xeeb81ebfef314aaU, 0x30510ffbfc0a2d0cU,
  0xe211f2f4e2f8dee0U, 0x46b9c218fbb4e0c5U, 0xfa0001fe0c000de8U, 0xff000109ff000501U,
  0xdee1e3dbdce3d8d0U, 0x1e5815bee8d01136U, 0xa0819095b6b38793U, 0xb933e80328630af2U,
  0xb83f1d1608f7f2c8U, 0x10601fd5e6f6ede8U, 0xad29d98119d106ecU, 0x3ed41be6dd2e1ce8U,
  0xccde101014e81afbU, 0xe21e09e4c7d1edbcU, 0x2d08393adbe0eb27U, 0xc68fe6813408e41eU,
  0x8d59cd8f23c7114U, 0xf6b34c16cbdd2c06U, 0x5230f9edb8c30306U, 0xfdd31a34f0e60b0bU,
  0xfd0b01abbc020922U, 0x128124f8f9c499caU, 0x9420ffffaf55U, 0xfffff27e000013f8U,
  0x35c40000a647U, 0x3ff5000032d5U, 0x6728a099009e7f34U, 0xeb1d1f8109fe3821U,
  0x2be30b7fbe325310U, 0x7f320b1830620114U, 0xfde9067f17533d05U, 0x60148179f6f62ef7U,
  0xf209e401df597f0bU, 0xd1237fe3d6f7a55dU, 0xa44b3f1481e1e8c6U, 0x7f860fefa618a2d0U,
  0x81b6f3f623e6dfb8U, 0xdf2010e9e4c17ff9U, 0x81445e50fb6f4d0dU, 0x8dc3ceb86247c881U,
  0x3259f90d66337f69U, 0xfdb7d6143beebf81U, 0xbe9bb9ff81deaec0U, 0x27d1e6ce7fc55776U,
  0xfb2e3af8198118f3U, 0x406a757c6a787f2eU, 0x5c387f631d575968U, 0xc28382b3d081e9f0U,
  0xd0deb886a6a9a481U, 0xb5b4ab81a4e1e0f0U, 0x5f7f32586c686e75U, 0xf0ca81ec46cd7897U,
  0xb8c5339054bf7ffbU, 0x3f4acf4c61d7815aU, 0x8ee3f5fa815a5d57U, 0x3f4a190a7fe14a15U,
  0x470e29cb197fbcfdU, 0xb3c9c4aaa081c9bfU, 0x3e477f383b623240U, 0xc281be8e84c0cfadU,
  0xb7c7b28a9b81b5c1U, 0x8f81abae8db4a885U, 0x39605e46537c617fU, 0x7fc1ffd70dd6c6e2U,
  0x52ef3c5e7fc9c1e9U, 0xfcf3ddb77f242b0aU, 0x1485ffff87f7U, 0x2327ffffe79fU,
  0xffffe332ffffeaf2U, 0x109100009b90U, 0xffffe7d800001f24U, 0x9eafffff9a4U,
  0x1e25fffff88dU, 0x360800003018U, 0xfffffb41fffff7daU, 0x1d0400001e2eU,
  0x204800002606U, 0x1e6effffe0fcU, 0xfffffcd0000038f7U, 0x1f0efffff78dU,
  0x4abffffb909U, 0xfffea96000001f1cU, 0x2375ffffec39U, 0x1f5afffffc88U,
  0xfffff727000000daU, 0x18400000702U, 0xaad9816941f20d4eU, 0xea7f0d26ff09100eU,
  0x99100bfda6012d2aU, 0xa20e8d7fd721005fU, 0x6e2e5091dcc9d7fU, 0xee810ed0d302e144U,
  0x130113bf142086caU, 0xf57e40c52481aa02U, 0x8759c57f7f30fb2aU, 0x33cce84fe3fed458U,
  0xd8e10716e0071829U, 0xf91f4792060d0526U, 0xbad620129af5030cU, 0x9560815e06fdf94bU,
  0x32d87bb405adbe75U, 0x8e36f5f4ab00491aU, 0xfac0e4ebf94211d1U, 0x9f01ec6eb71c7ff5U,
  0x8129be57e616f9edU, 0x24e6d1b5ca81454bU, 0xeb08048481097f0dU, 0x81e40bea068181dcU,
  0xeb814c1f1b6b49ddU, 0x9755da4021fd033dU, 0x18fe0f68af815fU, 0xe9046bf6b8dbe665U,
  0xe1c681e5065cd153U, 0xd302ee05812f30cdU, 0x997db3724281f3deU, 0x7fee7f7ae59ee668U,
  0x9200b5cdb515fdb2U, 0xec0f381f3d60ae8U, 0xaf33e081ed077b81U, 0xb917bf354324077fU,
  0x15dbf27fb674c209U, 0xbf13d035f181dc25U, 0x2269e737810e089aU, 0xa528105050cd7deU,
  0xb47fb63e57fd7fdaU, 0x5881b112e1f8cd1bU, 0x81f94b7fcd020a81U, 0xca50e11f8d3017fU,
  0x812b8d12711f1ad0U, 0xb374de3a07e91012U, 0x45c75e037f1904d5U, 0xfffff59c00000299U,
  0x4431fffff79dU, 0xffffe8f9ffffd973U, 0x24900001728U, 0xfffffdc1fffffeecU,
  0x4745fffffd86U, 0xffffdff6fffff9f0U, 0x157affffe3e8U, 0x6faf00000a97U,
  0xffff382e0000145eU, 0x131200001b7eU, 0x7da4fffffc47U, 0xffffef4fffffa434U,
  0xffffe1810000546aU, 0x20ad000009e8U, 0xfffff22900007867U, 0x167400000655U,
  0x8e0fffff461U, 0xfffff92affff9e55U, 0xffffec3efffffbb1U, 0xd15c7281c518f4f1U,
  0xe95d1df38c424f16U, 0x19c3c6cceffcc7ebU, 0x175062b92b343403U, 0xc112ac17bbe63ab0U,
  0x355f16c9c04606a9U, 0x39f80f3d5f4204c9U, 0x1e1158040000dbb6U, 0xfd7f0bb7fe1397c1U,
  0xe41ce3b93dd34929U, 0x11cbcf3036b3271cU, 0x9e9220544fdf1e5U, 0xb01018f6f67fe910U,
  0xeafdca4fdbf5e571U, 0x352fa57fbd65413U, 0x6ee30be5045834ffU, 0xea2629cb8710fb32U,
  0x5405ff053f81ca24U, 0x750bb2f160d0e34U, 0x572b09440309ee0eU, 0xff89c5205af9bb2fU,
  0x2bf6e5feec4e4715U, 0xa0070e48dafc3631U, 0xeecfb47f6065e9ffU, 0x2cd20f25ea44df31U,
  0x5217f0ef3defaf4U, 0xd6200021ae0deb0aU, 0x1b094ed20021dff6U, 0x11bde40fe0d5151aU,
  0xeddf05fb54010124U, 0xdd07ffe908ff05ecU, 0xfe0104000704d0e8U, 0xdff45811e37f04fbU,
  0x3adacaffea6bf7ebU, 0xfffd710c7520b1bU, 0x260129fd07db4afaU, 0x2d42efdaff21f718U,
  0xee70a17f4101107U, 0xf1e5d6f40a0002b9U, 0x2181240d2ce9100cU, 0xffffc72d00002fe4U,
  0x3a90fffff15bU, 0x2f4dffffe93bU, 0xfffff8e3ffffeb9cU, 0xff7e813eca0de011U,
  0xe0b6bded7fe4f9ddU, 0x285e6c1581e1be4cU, 0x4040406a7f4c6f50U, 0x2efa34e5460b811aU,
  0x4e4e467f5d437873U, 0x741009087f40eff5U, 0x3ee30e00da81f634U, 0x200db3ecfde25a81U,
  0x645fb2ffa5aabd81U, 0x2bc1eb8444520b7fU, 0xc00a1f3b810e15e8U, 0x81befcdfdad6d791U,
  0xeb2a7fa0cde1f2f2U, 0xf5fc00fee116537fU, 0x36db7fc9159459b9U, 0x81db05e0e0206df8U,
  0x15bedce5f8b4c381U, 0x47fb0e511e40c1fU, 0xbb3e3911208128beU, 0x548111eee645ea03U,
  0xcce0fa41127fd804U, 0xfc816304b00720ecU, 0x9d2200bf787ffe2dU, 0xfffff8a7000000baU,
  0xffffc35f00001666U, 0xfffff51f00000441U, 0xb89fffffa1fU, 0xffffee90fffffe62U,
  0x193900000725U, 0x97b00002122U, 0xb7a000013c9U, 0xffffc4bdffffd955U,
  0x32800000b56U, 0xfd5000002ecU, 0x78900000a03U, 0xeb1fe802e4ff0adeU,
  0xc32d22f9faf30ae6U, 0xda001c2802f31409U, 0xd90dfecbdf7f0debU, 0x13c0570d0d2738f8U,
  0xf610f626fa29150dU, 0x3ce94dba1d2e200cU, 0x40cee3d50b051124U, 0xf0deeaf1010c04e8U,
  0xf14f62a2cc778a0U, 0x7f31fa4e97d0d1e2U, 0x7c15dcb8117af117U, 0xfb0fc0ec0a20071fU,
  0x230ef32608ff0021U, 0x7f40cf20718f9f0U, 0x46362b2fdb554ae4U, 0xda4e229fbdfed481U,
  0x460195cb0de6d90aU, 0x5e3c102f8e53335U, 0xdf1505fafe0a24caU, 0x3415304629e41d0dU,
  0xe51ed9c3f0f91356U, 0xc8c832bcfb1ab5f9U, 0x5f1e27fe9bd2012U, 0xf51803fa034fe7f7U,
  0xdff4f6fcfdf81607U, 0xdf04ea1906caeff3U, 0x32c11641ed452af0U, 0x7fd211d7f51de73cU,
  0x4e5023fad003fa14U, 0xf6e3c8faf9be01efU, 0xf3fa1a10ea11c0U, 0x2802f9f514c70f16U,
  0xa7f015011fe102eeU, 0x81c7dfbb171435e9U, 0xc81fba1ffb100e28U, 0x4e321f5ed98fae7U,
  0xb0aff13d9fb81e4U, 0x4afffb1d190112ffU, 0x1ee04c0c6cd2db8U, 0xc2b26a0617ec1333U,
  0xc41f521635f9f81fU, 0xafaf4e6f72fdbedU, 0x2b140e04efeff81bU, 0xf11308fffefbee09U,
  0xd6be25d022c01f7fU, 0x1c26ec0c29c80046U, 0xbb1beb005c2e0df7U, 0xe13223f9191014ebU,
  0xd2160fe9f819091cU, 0x4cec0106fa2cf0fdU, 0xf9da3b270312fd0fU, 0x555ff00e3dc127fU,
  0x1607c6fedfe700e9U, 0x614f6fae6e8f2f1U, 0x141702effef2fff8U, 0xfc0d0dfafff60a01U,
  0xf6ecfee8ff0ee9ebU, 0x2beafdca92003909U, 0xe27fe853b6a7fb1aU, 0x28aef5021ce33de9U,
  0xd22f231e230b05e0U, 0xe606f33527ed2b1aU, 0x7301ed0a2abf46b6U, 0xc48c2a3e54537feaU,
  0xe6db14206000e0deU, 0x3febfaeadce52330U, 0x60ec02ebf510f4faU, 0x260502d401f4eef7U,
  0xe31dbff5f7a60502U, 0xd309e731e0edc4d1U, 0xf281b517b90ee3U, 0xbeabefbe5040111U,
  0x3310ddfdf7e40af8U, 0xd904edf1e2f8fdfeU, 0x1428a4bd7ab7ffeU, 0x77b9ddb5a73843b4U,
  0xc2371ef05461f727U, 0x4bf42dd6fde74f0bU, 0x56df0e002114efffU, 0xee913c318f2e7f4U,
  0x16fad713109a50deU, 0x4a382fd3cb52f3e4U, 0x4010b481250d2929U, 0xe0d5cf03f8fad29dU,
  0x8e1b1ac9003dfabeU, 0xcc0a2d49fdf00ff2U, 0x30db02d005e9e416U, 0xe92f2237d11539f4U,
  0xea81f311d96ed8f2U, 0x1f60814f4df44e0U, 0xd3e4150b16e8f3d4U, 0x2f4fa170912fd20U,
  0x17dcb35f0b041ad9U, 0x35e92681c52dfdffU, 0x60ae7f62740f80cU, 0xf0b4e01e231fa27U,
  0x2616db0efdffff10U, 0xe080cdc142a011eU, 0xfc2babe70ff8f82cU, 0xa6e2ab81f330e80fU,
  0xeabe1256ebc71fe0U, 0xf603f71502e9e903U, 0x1010005e406071cU, 0x17fe0308ef2ff9f2U,
  0xe6cb00b6071605d7U, 0x227c81ddad3c600dU, 0xda4eeef6e1cb070aU, 0xf1e7f515fad60401U,
  0xdcf80c0211f30fddU, 0xfdfafe0b120d13fbU, 0xa0b70df91d24f00fU, 0xd0f7e2d28b7ff4f5U,
  0xd3c89b42acf2d51fU, 0x1e8f2f23fed0c29U, 0x1005eef010e7eb22U, 0xd7ea0eeaf6bff80dU,
  0x2e4f982f0a7f53f5U, 0xd3df41f1ea32dbe3U, 0x6655b9c8f218ef26U, 0xd4f0db1629084a19U,
  0xc0df13b31f62d11U, 0x3d0ef317ffb22a2aU, 0x11c01dcf3c00a19U, 0x8136c55d4a17ea11U,
  0xd4e54915fdbaf7c7U, 0xff200cfdd511d311U, 0xe408081200fdecfdU, 0xd7fd10f1eb34fef7U,
  0xb41f3ae90c0c0546U, 0x8b17e70be88bd71cU, 0x8184e53cff1e1d1eU, 0xea2ef9011cf6f8dfU,
  0xdc0f1e18ec19d4fcU, 0x48e8062afd03f5e8U, 0xff993d7fd219516eU, 0x640ddc1cd8045d29U,
  0x27eff8ce1d31e7ddU, 0xfbfdf2f1fb0d0919U, 0xeef9f50105080636U, 0x15f9eefc0619f1f9U,
  0xdbb321f7272ef2ebU, 0xfd52c7ce9129c1f1U, 0x5c281d737c7ebf9U, 0x23ef0fe7ebc7ed2eU,
  0x9a04360316fdd115U, 0xfff06a4630cf03ddU, 0x48d40c22f552cef7U, 0x19e20e998114baadU,
  0x56eff4cf01130f26U, 0x1bff0321dafd0ce9U, 0xca3300e2ffff1b06U, 0xacf2fb22f8fdf206U,
  0x3f0df68d24503435U, 0x268125000d131c30U, 0x10f9b571817210aU, 0x609100c26fa1adaU,
  0xf527fbe4f6f7f600U, 0xeb05f24100cd180cU, 0x44cfc6de1b76fb7fU, 0x4ada38cf8fd444feU,
  0xd5e0e6ea3d18100fU, 0xc031e160c030623U, 0x2c010122fee0ed17U, 0xde03f9e3f8eefff9U,
  0x10ad5e5e549f806U, 0x15f40be0ff01d906U, 0xf7d6da45017f1507U, 0xc213e4272202f913U,
  0x3564d844ebd6362fU, 0xdb08160afc32111aU, 0xd3c2bd34ef09d92dU, 0x2af3ee072fab7ff5U,
  0x13df341fd1dd1a2aU, 0x2de5ecc33e222825U, 0x7fe8f0031b16e52fU, 0xcaee1ee103c3ee3aU,
  0x5990d8d61bc416faU, 0xb474c7cdbd5faddU, 0x4714a105b8211724U, 0x1f90c140816e309U,
  0xe115f00815170207U, 0xd3032be005c5e618U, 0x7ff6f909f9a8fe64U, 0xe3b8f7aed19ef5d8U,
  0x2325b00edbdce2fbU, 0x9e2fc0a0f1c030bU, 0x21cfdef6f8fbdcfcU, 0xf7001e44fef7f4e4U,
  0xf3f3f9f5f57f041eU, 0x49b2dad9ee1af5b4U, 0x3af0de1330181ef4U, 0x1fc416fc05fe0228U,
  0x1705fbe6f1d70c1fU, 0xdbe2ea15e9f2fa0cU, 0x7fee48a9dbf6384cU, 0x67552c97f4ff2319U,
  0xcf08c909c640fc0cU, 0xef900321e08e903U, 0xb816e4020716f1fbU, 0xe7fc29e718b8e00cU,
  0x4fb308f8ecc51647U, 0xd48101b7fabfca12U, 0xdcffd428f4d0142bU, 0xe8511713d52a0ad7U,
  0x53c1900f70afee7U, 0x1af70fdde6d802f8U, 0x4670b449d3e87f1bU, 0x28c1248b410af435U,
  0xfd3bf020ea531fcfU, 0xeff0010d08070a1aU, 0xc90af6d309e2fbfeU, 0x3fbfd1c073418fbU,
  0xe3f614230dedeaU, 0x7f0816fbe11d330eU, 0x3303f83c9edef206U, 0x1202120b130afe18U,
  0xfdd5daf7fbf60229U, 0x11ea0e100e19e8efU, 0x1dff7f0808f64003U, 0x5ce3d0ff1009c83bU,
  0x4c0346d5ea23f1ddU, 0xd92707040214f5eeU, 0xe140815faed0706U, 0xd010404f613100cU,
  0xaa20acab1737daedU, 0x1bafee24ecf9eddcU, 0x1bee81f61af1142aU, 0x4f713dff5070339U,
  0xf82133dcfb0e0306U, 0xd3edfd0906c910ffU, 0x6168f22011f971c4U, 0xeaee7f17a330d74cU,
  0xea0cd8973fe1d0U, 0xf3211af82bf004e6U, 0x100cde07fefff020U, 0x12f9e13507d00bf6U,
  0x2e970b31d90d303cU, 0x3419461f83e0fb2cU, 0xdf7c826357f19dbU, 0xffffd5a900000c6cU,
  0x9bd000023a2U, 0x65bc00000392U, 0x652000030a3U, 0x89f0ffffefa8U,
  0x2dcbffffc629U, 0xffffd2d100005fbaU, 0x156900004699U, 0x13fb00002aaeU,
  0xfffff85000006e5bU, 0x8d17ffffbec5U, 0x2e76ffffdac2U, 0x31c000002355U,
  0x2910000162fU, 0xffffcd64ffffe65bU, 0x11dd00006a98U, 0x5db400003202U,
  0x19e100000ba6U, 0x4d1dffffc4d8U, 0xfffffbeb00002269U, 0x37f0003de04f2e3U,
  0xd5ff75ec03f50104U, 0x1231fef63bf7f4b1U, 0xec32f5feef111bU, 0xebe6047a070c01ffU,
  0x63d4eb81f03e81U, 0xc20b64fc132809e3U, 0x2bcbdff04de913bfU, 0x7fd52f7ffa1e7f7fU,
  0xec12357f1c7f4bfbU, 0xe2bd1f1fbe0555e5U, 0xe00026f01df30105U, 0x13f100f85126f7acU,
  0xfce14bf9fe0b0b1fU, 0xf0dd0270f715f7ffU, 0xd477cbfb0ff812cbU, 0xda007f02e2100022U,
  0x136034097ff00637U, 0x6e16f0ae9fa00f0U, 0x8125ef430cebebfcU, 0x81a1e2811081fc8fU,
  0x8181ffc2817f7f7fU, 0x1581817f74f58181U, 0x818122d77f7fdfc5U, 0xe17f81897fbd7f81U,
  0x1a837f645cf07fc8U, 0xd70148fcf008e22aU, 0x16e90b0f7a7fd036U, 0x2e27f0302fa0ae9U,
  0x112aec59cae602ffU, 0x3029defedc03cdfbU, 0xcafe4317b6230205U, 0x1f41ff106ff8049fU,
  0xfdea0cf5f70bfdf5U, 0xdae704220cfb1a02U, 0xb48e0a00c1680c3aU, 0xafff3f7faa670ed5U,
  0x7fd6e10c3ef8b78bU, 0xf9dcfb20090afff2U, 0xf1c415a017e64968U, 0xfba92f1abc0e5606U,
  0xd302d318bd240505U, 0x2ff2fc0760304a8bU, 0xae41b05fc0df9f9U, 0xf4d9fc21fcfb1b03U,
  0x10d300002bf4U, 0x1a2900002215U, 0x2b4fffffd36U, 0x153400002247U,
  0xfffffb03fffff9acU, 0x44e700000372U, 0x15500000f58U, 0x5e5affffffe0U,
  0xd3500002fd2U, 0xfffff1db000011c2U, 0x23f5fffff335U, 0x10d0fffff8d9U,
  0x7a100000376U, 0x740000065cU, 0x16b000004baU, 0xa2100003ab7U,
  0xffffebe200000a28U, 0xfffff13000000409U, 0xff10000172cU, 0x3dfc000009f2U,
  0xeaf2070de70b3af6U, 0xebd1eb1307f326f7U, 0x10231b4716eef1e5U, 0x1d90600d98112f9U,
  0xeaeff00dd90215f8U, 0x490328ecd906f905U, 0x1ab3c9d1f6e57f2eU, 0xf20e01c50495c513U,
  0xeddafb10ff06ebf1U, 0xe328db03cc0e041cU, 0x13f2f8011712ea81U, 0xc7fbe329ee1afed1U,
  0xf10d0fe61bfd0d28U, 0x29eff22f0239e7c8U, 0x11322cf615011b18U, 0xfa080c08ecd20b33U,
  0x493f443fe715d4d5U, 0x1f1504f5c807f836U, 0xb67f3db71d04e40fU, 0xdb40f0b30ffc798U,
  0x80b4608f7fef0U, 0x1572131e3a117600U, 0xf2ef510f0815f104U, 0xf8fbeb078404fefcU,
  0xa41fe80681090dfbU, 0xfd33d81504e4fa03U, 0x10b5e71b122081f9U, 0x11673225efc300f0U,
  0xfdf80cf24c873a10U, 0xd91ae0fdceff10fbU, 0x901f5def9faf4e3U, 0xff7ff33f221d1faU,
  0x81e812111004f7e9U, 0x150a1ce1f00cfcf3U, 0x9c1cd1f2111f603U, 0x5f8ff08e6f02814U,
  0x9e47dde83265b201U, 0xd9f30ec902fefc4dU, 0x13498133dc7b4147U, 0x3e00b8fe43431505U,
  0x20f1213e1e410e6U, 0x1dca1ee517f1dd21U, 0xe5f911112702f418U, 0xd5f1e806a9d60931U,
  0xb1231ffe57f10deU, 0x2d0afc0000bb1436U, 0xd62e1ff52d17ef98U, 0xf423f62502f8291aU,
  0xd68114140329e9e4U, 0xff0043fa141c1551U, 0x20d08a6e8f6a10bU, 0x11d303f3eb02efe2U,
  0xe240ced717faeedeU, 0xfa0ecaffef8114fdU, 0x36f4cf6feae0f1c8U, 0xe10513fef5ee0504U,
  0x7f52d54ef4c5000eU, 0xf9f0ce0ddecdede3U, 0xf41e47e3e6d5f3ccU, 0x5f5fd23d217f4ffU,
  0x14f101fae3b7eafaU, 0xf9a3e7f91bd70fbfU, 0x8101ed1bff05fb08U, 0x13f402d3db26e606U,
  0x17dd05260be20559U, 0x160203fdee810dfbU, 0x1fe60d4b16fcfdd9U, 0xcfe0713f20808fbU,
  0xf8050106f508ebebU, 0x7f60b01fcf4f9c6U, 0xe0f3ed39040ffbf0U, 0xfe3c6f016f1dc0eU,
  0x52a812c0102200fU, 0xea02100714eaf3U, 0xf408fd01000f1a0fU, 0xfc0b16f70102fcfdU,
  0xe7c5eba734e12b08U, 0xe7f2dfec24f706fbU, 0xb810712d010deecU, 0xfeff0511df09fb16U,
  0xefdaefcd12100c1bU, 0x2ce0ecd12c124712U, 0x37f3dbfbee1eeafeU, 0xffbffc44eb277f4fU,
  0x48ff08e1f43e3bf6U, 0x1f0a0a0b0f3a1b0aU, 0x4dfc4ddbf87f1ad3U, 0x862727325be812d8U,
  0x1ccf9d80ec5bf18U, 0xdedb3045c29ec902U, 0xdef4080ecb830af7U, 0x1fbcdf7f26d5fe43U,
  0x5e11bf1e605bc14U, 0x656100ef3502c4f7U, 0x4a73bec17bf13b2U, 0x52230f12f7b85516U,
  0x810c56501c62dbd0U, 0xb051213f2091a0dU, 0xe4019722d5d2471dU, 0xd0bfe2e3f15012f3U,
  0xf6153a78ec225ae1U, 0x13dc99e1db057407U, 0x204303121ebcfeffU, 0xd62bbd06b922ea02U,
  0x3d1b193681d401c9U, 0xebef04db0059f7fcU, 0x7f48f9111ef00a43U, 0x1fb5fb3ae5ebfe17U,
  0xec106192494fc3ebU, 0x1e1fecb2ce22d69U, 0xf330e05f7f6a7faU, 0x81f02cfbe41dcae5U,
  0xcdf9e2f7fcc1e91aU, 0xd07d007f1f0313dU, 0xb622e7bc26f514faU, 0xe7f7e201e9034fefU,
  0x162115fadc061c0bU, 0xf62000fa187f2215U, 0xee0204ebabeef511U, 0x3306fbd0dada02ebU,
  0xe60dfad81e018105U, 0x1e26010217f41a16U, 0x1a4ce338edce0310U, 0x1927150e262d06e4U,
  0xfef02f214b201216U, 0x1310141d01031207U, 0xbf2e91e05fd19f0U, 0xf91f7f28f7cfe6f5U,
  0xf509ffea1c9f0b05U, 0x87fe0f0bedfbfb03U, 0xeefbe6150b0ef105U, 0x1927310800efe00cU,
  0x1b211218fe7f2703U, 0xff1616e9cd20f3faU, 0x2aee14f7eafcf2f8U, 0x1a1606f3e917e2ecU,
  0x303aedfe47cd9d1fU, 0x59f81e3c05e538e3U, 0xd54d15f5a5c27f15U, 0xffc0a11bd674f668U,
  0x70afff8eb47e400U, 0x1e7ff1f6ce06c7e9U, 0x15fdf0d21df9f80aU, 0xcb22effeeee74c32U,
  0xf1efd814f942f2fdU, 0x1eeaf70be98cdfa8U, 0x23e7df3af9ee17bfU, 0x3d0bf2d124f806ecU,
  0xb002d4e4f62781d0U, 0x129a3825f8231912U, 0x1913d46ae2091203U, 0x1f292b22fcd381edU,
  0xd725e62022360a02U, 0x13e2def38a0211ecU, 0x17fc0039d80403ceU, 0x6f8f1111f21edbbU,
  0xd6d7f2a45b07d139U, 0x1410f9ae0d11ed26U, 0x277fc343f2112a3dU, 0xf6e9cd211e28de14U,
  0x27f400001c04U, 0x14200000de0U, 0x1955fffff4c8U, 0x11a100001260U,
  0xc5b00001f88U, 0x1fa1000047b1U, 0xc49000026d9U, 0x299e00002a89U,
  0x24ce00000788U, 0x17fc00000160U, 0xffffc9bffffffba0U, 0x35600005104U,
  0x239fffff5beU, 0xfffff962ffffdd79U, 0x355a000013fbU, 0x1eb70000329bU,
  0x11016a810309f3d3U, 0xf45d00fd01ef01fcU, 0xe7f803fe01060f04U, 0x5ffcfe0832b8ddU,
  0xefc0208f30bfff2U, 0x1bfbae40fdfc4ab5U, 0x4f52404f7c80a81U, 0xf7ee124f3e0001f5U,
  0x3808daf0f900ed0eU, 0xfef301fbe2000bf8U, 0xf1f7f6fbf506d781U, 0x4413f7ff0c232707U,
  0x17f90f01b82df638U, 0x5505b425d2101409U, 0xec1bf00a01ecea7fU, 0xb72110c0eb11ff05U,
  0x9dbb1924490d58e0U, 0x223105ec81a2d6acU, 0xf0e168cae346c023U, 0x1d5fa3bfde8e3f2U,
  0x2eff060e525e500aU, 0x3b5c381e3c170f09U, 0x264d5e1a2e2a297fU, 0x4513243d0430211bU,
  0x2c0405e2f5fb888dU, 0x197f01fafaecfbf7U, 0x39e50500f3fef609U, 0xce7f02fa022aa9feU,
  0xed06050f0c3903dcU, 0xf7052d2104ee2cadU, 0xffee1a0509b40f9eU, 0xebe57fe24cfaf7fcU,
  0xf00205f5ee0bc6b8U, 0xedb112e60b21fd14U, 0x3401f90e16fdf382U, 0x7fe7f7fe070628e8U,
  0x13f312fed1f10517U, 0xed16180117041007U, 0x62af00212e0036cU, 0x81f9090ad700f7f6U,
  0x47bbf3eaf23ae41fU, 0x15c2e6dfcca73ac2U, 0xe952c2c29ddc8111U, 0x20f728c3e35b44b6U,
  0x4c0afd16297f2219U, 0x363d350128232a13U, 0x4e7b2d10452d0f6fU, 0x460b2823042c2a28U,
  0x5afe08d5fd108ef2U, 0x2124fa0aeae5f7e7U, 0x6f811504fe02e96eU, 0xd8130dfbfda04ae3U,
  0xdb09fbfbff7ff212U, 0xed08f5fa0efad5e1U, 0xfafafcff181a04f8U, 0xc0034b0b0402f808U,
  0xc0f9f0ff28faeb25U, 0x1f5fef219ea02feU, 0x14fb1dec21fb13beU, 0x7f04e9f506d3db06U,
  0x10f102fd0ee4f720U, 0x70dedf9f8f7eaebU, 0xe90409f425070f32U, 0x8111f8fcfa05f508U,
  0xad8533ffded7c5cbU, 0xcdb913c4d092f3f0U, 0x726ec2b35bdbc7b3U, 0x819cd502d3ea0297U,
  0x3808041d304d1f09U, 0x82432142807080dU, 0x5f7f20115b220b36U, 0x29210918f9131f06U,
  0xe27fffff880U, 0xffffebb000000e50U, 0x1487fffffc4fU, 0xd5c00000159U,
  0xffffedce00000699U, 0xf4dffffee13U, 0xfffffcd7fffffbfdU, 0xffffff46fffffa97U,
  0xc34fffff256U,
};



AI_API_DECLARE_BEGIN

/*!
 * @brief Get network weights array pointer as a handle ptr.
 * @ingroup network_data
 * @return a ai_handle pointer to the weights array
 */
AI_DEPRECATED
AI_API_ENTRY
ai_handle ai_network_data_weights_get(void)
{
  static const ai_u8* const s_network_weights_map[1 + 2] = {
    AI_PTR(AI_MAGIC_MARKER),
    AI_PTR(s_network_weights_array_u64),
    AI_PTR(AI_MAGIC_MARKER)
  };

  return AI_HANDLE_PTR(s_network_weights_map);

}


/*!
 * @brief Get network params configuration data structure.
 * @ingroup network_data
 * @return true if a valid configuration is present, false otherwise
 */
AI_API_ENTRY
ai_bool ai_network_data_params_get(ai_handle network, ai_network_params* params)
{
  if (!(network && params)) return false;
  
  static ai_buffer s_network_data_map_activations[AI_NETWORK_DATA_ACTIVATIONS_COUNT] = {
    AI_BUFFER_OBJ_INIT(AI_BUFFER_FORMAT_U8, 1, 1, AI_NETWORK_DATA_ACTIVATIONS_SIZE, 1, NULL)
  };

  const ai_buffer_array map_activations = 
    AI_BUFFER_ARRAY_OBJ_INIT(AI_FLAG_NONE, AI_NETWORK_DATA_ACTIVATIONS_COUNT, s_network_data_map_activations);
  
  static ai_buffer s_network_data_map_weights[AI_NETWORK_DATA_WEIGHTS_COUNT] = {
    AI_BUFFER_OBJ_INIT(AI_BUFFER_FORMAT_U8, 1, 1, 11304, 1, s_network_weights_array_u64),
    
  };

  const ai_buffer_array map_weights = 
    AI_BUFFER_ARRAY_OBJ_INIT(AI_FLAG_NONE, AI_NETWORK_DATA_WEIGHTS_COUNT, s_network_data_map_weights);

  return ai_platform_bind_network_params(network, params, &map_weights, &map_activations);
}


AI_API_DECLARE_END
